memory_initialization_radix = 10;
memory_initialization_vector=
-181265696
-105153912
-254523008
-182015184
-258465984
-181535
187592544
162758128
269096640
-266969664
-5861885
352786944
-4816260
-201208224
-280932352
46661532
220226544
263820048
-119789216
-72062000
189493248
377304928
18991332
127099040
53691912
-76725216
43985420
205628320
375381856
-239763664
-288627648
-301437696
182410624
-160004576
-97295120
-238375200
122923976
94335648
-143988976
241654480
104244168
185646384
-83444224
-340559872
-198304160
201089024
-298416448
-109336952
-431542624
241970496
176741392
-225474512
30162858
169522256
167237488
205798880
-263536240
-167528016
-284267680
75949936
-53236468
-237229616
-242535200
-5297082
50316668
155207600
-47211456
68077296
-194258560
-291776928
346975264
286619456
-75951432
-86248592
-174134528
-183649296
99344576
-41452780
-110820016
212141392
-164139296
121834944
-185899856
-236277232
-220421936
-332427936
-295333024
-88515112
-209295744
367551264
-276505856
225201344
272632448
95370360
86883136
-168380752
-454796320
65888300
156140320
352640800
11323959
170532464
442003424
-259896960
-76315648
119805136
-79654040
306712800
-32968550
332020096
328193600
50416304
123789760
304982624
-411669632
161175760
-158805376
51863036
-65507088
-32200320;
