memory_initialization_radix = 10;
memory_initialization_vector=
-40
-13
2
25
-3
-15
-41
9
1
2
-12
-3
0
8
-2
-6
-6
-13
2
30
30
10
-35
-42
-32
-30
10
22
-38
-6
-11
-8
30
-15
22
-25
25
13
38
29
21
5
1
-45
-44
12
-41
24
14
23
-7
-1
27
-33
23
-9
-51
-2
-34
-42
-29
-26
33
-16
-48
18
-3
-12
29
-50
-12
0
26
14
12
9
-78
-5
3
3
-32
-9
12
9
-18
-43
3
-34
20
-33
23
-11
6
26
-11
4
24
-27
5
14
-18
-35
-16
-35
21
-19
-14
13
21
7
-26
-14
24
-40
-13
-14
-41
-25
19
-8
27
-3
1
-24
-27
-17
28
-8
-23
20
23
-6
-43
-1
-20
20
-16
-34
-5
-24
35
-35
-28
34
36
39
6
-2
-7
21
-35
3
-34
-4
-25
42
-15
-19
2
9
40
2
-24
-8
-20
17
4
-36
15
-18
35
36
-19
-9
-17
46
27
-12
12
47
15
13
39
-11
4
-32
-27
-16
-18
-8
22
-16
29
1
-1
-31
-33
40
8
2
41
-30
32
8
-32
-7
-2
4
17
16
-3
-45
-32
-34
-32
-38
-45
9
-18
-28
-4
-7
36
7
-5
-31
-43
-49
14
20
116
-8
-45
25
-44
20
-32
40
32
-42
-24
-4
-27
-43
-62
14
-19
-7
-36
8
37
18
36
-44
-34
8
-6
33
45
9
17
-19
-16
-40
-11
23
8
7
-24
-27
32
14
28
-11
-23
19
-27
-1
-28
15
-20
-1
-21
39
1
34
-17
-26
-5
-7
-10
-22
7
28
-36
-38
0
-16
10
-31
-13
-22
-1
-7
-8
-15
-3
-21
-25
31
-29
12
20
-35
8
-12
-10
-16
-18
-10
-14
40
19
55
0
10
-7
-44
-51
-29
-13
36
24
13
-12
2
13
-8
8
25
34
29
-15
-37
-18
0
8
-34
-9
-1
-18
9
29
17
-13
-5
-58
-16
16
-36
22
-20
24
19
34
4
23
-59
-20
33
15
-6
18
10
-6
20
-12
-25
39
20
19
44
41
-29
21
-5
-34
-23
-26
37
-27
20
-19
-31
41
-22
-19
-10
12
-5
-24
24
-24
16
-47
-18
-42
41
25
2
4
-31
1
11
-24
-29
46
-24
-41
17
-31
-2
-46
15
-25
11
-11
9
11
-20
34
-13
-14
-36
-10
10
11
16
13
34
-3
0
28
38
-40
6
13
-5
-4
-21
-15
-28
6
16
-2
6
2
-2
-4
-23
-1
17
-26
19
-21
-54
-26
1
-46
10
21
12
-28
31
29
-32
-1
16
-1
15
-39
1
-10
-41
7
-31
43
7
9
-25
-7
68
21
-25
-15
29
55
-20
-25
18
-8
-20
-14
-22
-27
-35
16
25
-12
-33
-28
16
-5
-22
-12
-3
-38
-23
5
4
7
-30
13
14
4
-17
-36
-10
-35
-15
-28
-16
41
-6
-30
-48
26
16
10
-14
13
-2
2
28
-11
-14
30
-12
25
-9
2
7
20
45
34
-34
-26
28
-30
-31
21
-44
-15
-46
-12
20
-52
-2
-31
-24
28
-8
5
38
7
-46
19
-12
-4
6
-74
-1
-20
6
4
-27
-50
-26
24
25
-46
-48
31
-17
32
-12
-49
-19
0
-18
36
2
-13
-6
-58
17
-49
-34
-13
-13
-8
-45
-1
-18
41
-7
-18
7
15
-1
-24
0
25
0
13
-13
-16
9
31
-34
-37
21
-8
18
6
-26
35
-18
-50
-5
14
-34
40
-22
-35
-3
32
30
-37
12
-32
3
14
27
30
-6
12
-16
-28
-10
-30
12
13
-8
-9
-2
12
0
25
10
52
-8
41
20
34
-21
-28
7
-7
43
-29
23
-9
-9
-5
-4
-1
16
38
-28
26
-21
19
-21
31
-8
-14
-6
11
14
-33
25
-2
9
21
48
31
8
-72
-37
-34
-22
-18
-4
-24
-11
3
12
-15
23
1
-25
-5
-27
16
-3
-39
17
-29
-16
-8
-7
-14
32
-49
-10
25
-41
-41
25
7
-6
-23
-32
1
3
-10
1
19
-1
-12
38
-14
-9
-13
41
13
-9
-1
7
0
-6
-20
25
-27
-24
-37
-37
10
16
-49
0
-3
26
12
8
4
-12
-21
-22
36
-18
1
4
9
38
26
23
-7
13
-53
-21
33
-37
-39
-30
-21
-22
-49
26
20
6
-52
-3
4
11
19
-4
-42
-4
0
17
21
23
38
-8
15
-35
3
27
8
12
-23
-32
17
-25
7
-27
-6
-35
-11
-32
-43
-2
-14
-22
44
3
-22
39;
