memory_initialization_radix = 10;
memory_initialization_vector=
590217216
-573901824
-426115072
191774720
1538359296
-1870114816
-638197760
193568768
-1845923840
1703911424
377069568
-2020810752
375117824
491704320
-174563328
-1088157696
761626624
-456695808
-757518336
-856301568
-1953472512
453558272
1555103744
947159040
220504064
-1505460224
1333370880
-1352695808
1883717632
1618051072
1619869696
1517153536
-575258624
-897961984
-2098012160
-1952800768
279973888
1840971776
1751318528
-334168064
-842641408
753770496
235741184
-1267800064
-1533530112
1043210240
645390336
920439808
-411754496
-976990208
-388415488
-1660960768
2099470336
2128084992
-2089017344
384966656
152600576
364564480
1203671040
1570861056
-142950400
1361666048
-1762498560
-1603551232
705986560
2123595776
808910848
-1025376256
-1447837696
1506738176
-1364926464
1600761856
-186241024
-691462144
-1775017984
-24944640
655523840
153124864
-186236928
-330661888
518144000
1165615104
-1755324416
922734592;
